#ifndef MODEL_DATA_H
#define MODEL_DATA_H

const unsigned char model_tflite[] = {28,0,0,0,84,70,76,51,20,0,32,0,28,0,24,0,20,0,16,0,12,0,0,0,8,0,4,0,20,0,0,0,28,0,0,0,140,0,0,0,228,0,0,0,0,3,0,0,16,3,0,0,92,7,0,0,3,0,0,0,1,0,0,0,4,0,0,0,182,252,255,255,12,0,0,0,28,0,0,0,60,0,0,0,15,0,0,0,115,101,114,118,105,110,103,95,100,101,102,97,117,108,116,0,1,0,0,0,4,0,0,0,144,255,255,255,7,0,0,0,4,0,0,0,8,0,0,0,111,117,116,112,117,116,95,48,0,0,0,0,1,0,0,0,4,0,0,0,170,253,255,255,4,0,0,0,15,0,0,0,107,101,114,97,115,95,116,101,110,115,111,114,95,49,56,0,2,0,0,0,52,0,0,0,4,0,0,0,220,255,255,255,10,0,0,0,4,0,0,0,19,0,0,0,67,79,78,86,69,82,83,73,79,78,95,77,69,84,65,68,65,84,65,0,8,0,12,0,8,0,4,0,8,0,0,0,9,0,0,0,4,0,0,0,19,0,0,0,109,105,110,95,114,117,110,116,105,109,101,95,118,101,114,115,105,111,110,0,11,0,0,0,24,2,0,0,16,2,0,0,216,1,0,0,188,1,0,0,132,1,0,0,172,0,0,0,164,0,0,0,156,0,0,0,148,0,0,0,116,0,0,0,4,0,0,0,82,254,255,255,4,0,0,0,96,0,0,0,16,0,0,0,0,0,0,0,8,0,14,0,8,0,4,0,8,0,0,0,16,0,0,0,36,0,0,0,0,0,6,0,8,0,4,0,6,0,0,0,4,0,0,0,0,0,0,0,12,0,24,0,20,0,16,0,12,0,4,0,12,0,0,0,234,19,169,188,202,110,133,102,2,0,0,0,2,0,0,0,4,0,0,0,6,0,0,0,50,46,49,56,46,48,0,0,190,254,255,255,4,0,0,0,16,0,0,0,49,46,49,52,46,48,0,0,0,0,0,0,0,0,0,0,112,250,255,255,116,250,255,255,120,250,255,255,230,254,255,255,4,0,0,0,200,0,0,0,221,173,128,190,178,85,187,62,231,17,248,62,20,129,207,192,84,253,87,61,153,116,146,190,253,54,24,192,54,186,34,189,75,86,158,188,83,39,26,190,132,141,123,64,111,206,248,61,157,179,22,61,172,153,232,62,224,246,232,188,50,52,154,189,29,187,168,190,200,248,188,60,233,0,107,190,192,204,132,62,88,46,173,191,182,98,76,63,229,160,193,62,85,84,58,63,81,15,196,189,2,132,56,191,244,121,183,189,151,48,121,59,208,180,173,192,98,31,7,60,136,184,170,190,19,106,43,190,140,163,223,190,113,136,234,62,215,67,166,62,91,87,28,191,169,168,121,192,70,110,47,62,49,97,19,63,132,221,86,61,141,147,130,191,225,147,33,63,74,241,178,61,7,69,242,62,204,49,122,189,178,234,237,190,24,37,103,189,74,121,106,63,194,162,47,190,19,68,218,189,186,255,255,255,4,0,0,0,40,0,0,0,14,132,178,62,21,234,99,63,138,152,237,190,101,117,185,190,162,151,53,63,14,42,41,63,21,247,220,61,33,121,128,63,172,43,46,63,108,229,28,190,238,255,255,255,4,0,0,0,4,0,0,0,84,107,49,62,0,0,6,0,8,0,4,0,6,0,0,0,4,0,0,0,40,0,0,0,75,110,45,192,141,158,14,192,216,171,61,192,171,118,143,62,117,154,132,63,154,139,31,192,101,16,254,62,2,106,142,192,14,47,104,63,148,220,105,63,208,251,255,255,212,251,255,255,15,0,0,0,77,76,73,82,32,67,111,110,118,101,114,116,101,100,46,0,1,0,0,0,20,0,0,0,0,0,14,0,24,0,20,0,16,0,12,0,8,0,4,0,14,0,0,0,20,0,0,0,28,0,0,0,208,0,0,0,212,0,0,0,216,0,0,0,4,0,0,0,109,97,105,110,0,0,0,0,3,0,0,0,120,0,0,0,52,0,0,0,16,0,0,0,0,0,10,0,16,0,12,0,8,0,4,0,10,0,0,0,12,0,0,0,16,0,0,0,1,0,0,0,1,0,0,0,7,0,0,0,1,0,0,0,6,0,0,0,206,255,255,255,16,0,0,0,0,0,0,8,12,0,0,0,16,0,0,0,120,252,255,255,1,0,0,0,6,0,0,0,3,0,0,0,5,0,0,0,1,0,0,0,2,0,0,0,0,0,14,0,22,0,0,0,16,0,12,0,11,0,4,0,14,0,0,0,24,0,0,0,0,0,0,8,24,0,0,0,28,0,0,0,0,0,6,0,8,0,7,0,6,0,0,0,0,0,0,1,1,0,0,0,5,0,0,0,3,0,0,0,0,0,0,0,4,0,0,0,3,0,0,0,1,0,0,0,7,0,0,0,1,0,0,0,0,0,0,0,8,0,0,0,228,2,0,0,140,2,0,0,56,2,0,0,216,1,0,0,132,1,0,0,224,0,0,0,96,0,0,0,4,0,0,0,82,253,255,255,0,0,0,1,20,0,0,0,28,0,0,0,28,0,0,0,8,0,0,0,52,0,0,0,2,0,0,0,255,255,255,255,1,0,0,0,60,253,255,255,27,0,0,0,83,116,97,116,101,102,117,108,80,97,114,116,105,116,105,111,110,101,100,67,97,108,108,95,49,58,48,0,2,0,0,0,1,0,0,0,1,0,0,0,170,253,255,255,0,0,0,1,20,0,0,0,28,0,0,0,28,0,0,0,7,0,0,0,88,0,0,0,2,0,0,0,255,255,255,255,1,0,0,0,148,253,255,255,62,0,0,0,115,101,113,117,101,110,116,105,97,108,95,54,95,49,47,100,101,110,115,101,95,49,51,95,49,47,77,97,116,77,117,108,59,115,101,113,117,101,110,116,105,97,108,95,54,95,49,47,100,101,110,115,101,95,49,51,95,49,47,65,100,100,0,0,2,0,0,0,1,0,0,0,1,0,0,0,38,254,255,255,0,0,0,1,20,0,0,0,28,0,0,0,28,0,0,0,6,0,0,0,124,0,0,0,2,0,0,0,255,255,255,255,10,0,0,0,16,254,255,255,97,0,0,0,115,101,113,117,101,110,116,105,97,108,95,54,95,49,47,100,101,110,115,101,95,49,50,95,49,47,77,97,116,77,117,108,59,115,101,113,117,101,110,116,105,97,108,95,54,95,49,47,100,101,110,115,101,95,49,50,95,49,47,82,101,108,117,59,115,101,113,117,101,110,116,105,97,108,95,54,95,49,47,100,101,110,115,101,95,49,50,95,49,47,66,105,97,115,65,100,100,0,0,0,2,0,0,0,1,0,0,0,10,0,0,0,26,255,255,255,0,0,0,1,16,0,0,0,16,0,0,0,5,0,0,0,48,0,0,0,160,254,255,255,32,0,0,0,115,101,113,117,101,110,116,105,97,108,95,54,95,49,47,100,101,110,115,101,95,49,50,95,49,47,77,97,116,77,117,108,0,0,0,0,2,0,0,0,10,0,0,0,5,0,0,0,106,255,255,255,0,0,0,1,16,0,0,0,16,0,0,0,4,0,0,0,64,0,0,0,240,254,255,255,48,0,0,0,115,101,113,117,101,110,116,105,97,108,95,54,95,49,47,100,101,110,115,101,95,49,50,95,49,47,66,105,97,115,65,100,100,47,82,101,97,100,86,97,114,105,97,98,108,101,79,112,0,0,0,0,1,0,0,0,10,0,0,0,198,255,255,255,0,0,0,1,16,0,0,0,16,0,0,0,3,0,0,0,28,0,0,0,76,255,255,255,15,0,0,0,97,114,105,116,104,46,99,111,110,115,116,97,110,116,49,0,1,0,0,0,1,0,0,0,0,0,22,0,24,0,20,0,0,0,16,0,12,0,8,0,0,0,0,0,0,0,7,0,22,0,0,0,0,0,0,1,16,0,0,0,16,0,0,0,2,0,0,0,28,0,0,0,156,255,255,255,14,0,0,0,97,114,105,116,104,46,99,111,110,115,116,97,110,116,0,0,2,0,0,0,1,0,0,0,10,0,0,0,0,0,22,0,28,0,24,0,0,0,20,0,16,0,12,0,0,0,0,0,8,0,7,0,22,0,0,0,0,0,0,1,20,0,0,0,32,0,0,0,32,0,0,0,1,0,0,0,64,0,0,0,2,0,0,0,255,255,255,255,5,0,0,0,4,0,4,0,4,0,0,0,33,0,0,0,115,101,114,118,105,110,103,95,100,101,102,97,117,108,116,95,107,101,114,97,115,95,116,101,110,115,111,114,95,49,56,58,48,0,0,0,2,0,0,0,1,0,0,0,5,0,0,0,2,0,0,0,32,0,0,0,4,0,0,0,244,255,255,255,14,0,0,0,0,0,0,14,12,0,12,0,11,0,0,0,0,0,4,0,12,0,0,0,9,0,0,0,0,0,0,9};

const unsigned int model_tflite_len = 1984;

#endif // MODEL_DATA_H